WIDTH=225; 
DEPTH=8; 
ADDRESS_RADIX=UNS; 
DATA_RADIX=BIN; 
CONTENT BEGIN 
0 : 000010010000011110000010001000000101111110000111110111000010011000001001111111110111110101000011001000000001000011000111100110111101000000010101111101101111011101000010010000000001000011100111111101000001010000001101000001010; 

1 : 111101011111010000111001110111011111000000001111011110111110111111110100111101010111001111111111100111101110111011000111010010111101110111010011000001101000000000111110100111110100000011101000010010000000000111111000000011001; 

2 : 000001100111100011000000000111100111000000011111101000111100011000011111000100110001000101111000011000010011000011111000110011000101011111000111000000101000011110000111111001011001111010101111111011000111000000101000000100110; 

3 : 111110100111110001111110100000010101000001110111110010111011101000000101000000001111101000000010001000010010111110000000000010000010011000011011000000111111011111111110101000001011111011110000000110111011000000011111111101110; 

4 : 000001011111111100111101100000010010111110111111011011111100000000011010000010000000011110111100010111101000000001001000100100000011111111100010111101011000010010000011001000011100111100000111110000000001110111110101111111111; 

5 : 111111101111110110111111101111110011111111001000001101000011100000000100111111011111011101111111000111110011111111011111100010000000010000000010000011010111101100000001010000000010111011000000000100111100101000011001000000101; 

6 : 000000111111110001111111011110111100111010001001000100000110011000000010111110100111001100001101100000101110111111101111101101111110010001000000000100000000110000000000100111101100000110000111111111000011000111100111111011011; 

7 : 001001001001011011001001111001000110000101001001000010001000110001001101000011110000000001000101011000011010000010101000101101000110110000011101111110101000001101000000001000001000111110001111011000111001101111111011000001111; 
END;
