WIDTH=225; 
DEPTH=8; 
ADDRESS_RADIX=UNS; 
DATA_RADIX=BIN; 
CONTENT BEGIN 
0 : 000011100111011010111101101000010110111111001000011011111100100000011010000000000111100001111110011111011101111101100000001001111111011111111000000010110000001010000001100111100110111100001000000010111100001000100000111011001; 

1 : 111001100111011110000001011111101000000000011111001110111100011000011000111101111000001111111010100111110100000010100111111000111011000000000010000000010111111100111101111111100110000011111000010001000001110111100101111011100; 

2 : 111100101111000110111011000000000000111100001111000010111110100000011101111110111000100010111001101111010110111111111001001001000100100111010100111110010111101011001000100000010001110110101111011111111110111000011000000110011; 

3 : 111100111111101101111011000111111000111111011111111110000010001111111100000001001111111100000000100000001011000010000111100111000010100111100101111100000111100011000001110111110110000001111111110010000010101111011000000000100; 

4 : 000100001111100101000010000111101101111110010111110101111110100000010110000000101111011001111111111111110110000011010111100110111100011111101001111101101000000000000010111111011101000011100111100010000011010111111111111010110; 

5 : 000000111111110010111110100000010001111110100000011111111011010000010101111110110111010101111111100000011100000000011000000011111110000000011101000001100111110111000010011000001111111110100000000010000100000000001100111110110; 

6 : 000101011000011000111011010110101101110101001001000101000001001111111001111101110110101110000111111000101010000100100111100010110101010001001011000010011000000101111011101111010010000100101000101000000011011111101000000010001; 

7 : 111110101000101110000111111000001011111111001000100011111111001111111101000011010111111000111110010111011101111100011111010110111111011111000110111000010111101101111011110111001001111011101111101001110110110110110000111101100; 
END;
