WIDTH=225; 
DEPTH=8; 
ADDRESS_RADIX=UNS; 
DATA_RADIX=BIN; 
CONTENT BEGIN 
0 : 111100100111010110000011001000011001000000010111101010000000101111011000000000101111101100000011100000011101000001011000011011111110110111011000000010101000000001000001001000000110111111111111011011111100011111010110111101010; 

1 : 111100000000000111111111100111100010000001001111011001111100100000000101111111001111110010111110100111111111000000011111101000000010111000000011000010111000000111111110011000001110000001001111100100000001111000010010000001101; 

2 : 111000111111011101111100101111111100111110111111110001111000100000011100000011110000100011111001100111010000000100110000001000001001000111010000111001011000011110001000110001000000110111111111110101111101101000111001000010111; 

3 : 000001100000011001000011001000010110000001011111110000111101010000010000000001111111111010111010001000000010111100111000011101111110110111010100111101000000001101000010000000000110111111101111100100111111101000000000111110011; 

4 : 111110100000011001111101000111011110111100111000010011111101000000010000000011000111011110111011100111101101111101100000001010111111010000000101111101101000010111111111110111110011000000010111110110111100111111110001000011001; 

5 : 111110110111010100111101100000010011000010000111110111000010000111010111000010101000001011111010100111101001111110000111011100000000111111101100111010110000000001000011001111010110111100011111101010111111010111101001111011100; 

6 : 111100111000011111111011011111000010111000000000111010111111010000010011110111000110111011001010100000001100111111110111101110111010011000001110000101110000000010000010101111011011111101101000001110000011000111011010000010101; 

7 : 000001101001000010000010000000001010000000010000011100111111100000100100111101011111110010111101111111100111000001110000000010000000001111001101111011111111001001111111011111001010111101000111000110110100110111001011111011001; 
END;
